0x0C
0x0D
0x21
0x14
0x2A
0x0B
0x18
0x36
0x21
0x1C
0x2D
0x33
0x13
0x08
0x16
0xF2
0x0E
0xEA
0xEC
0xF8
0xDB
0xEB
0xEA
0xD6
0xCE
0x17
0x15
0xF5
0x19
0x1A
0x1B
0x04
0x10
0xFF
0x1A
0x02
0x14
0xFD
0x09
0x3D
0x2C
0x08
0x23
0x1F
0x0F
0x22
0x2F
0x2B
0x1F
0x2E
0x01
0x00
0xFC
0x27
0x17
0x00
0x09
0x21
0x2F
0x33
0x04
0xF1
0x14
0x29
0xFF
0xCF
0xDB
0x11
0xF0
0xF9
0xCC
0xF0
0xD0
0xE0
0xED