0x05
0xF5
0xF1
0x1A
0x1F
0x03
0xEE
0x01
0x1C
0xF0
0xEC
0x05
0x0F
0xEE
0xE0
0x03
0x01
0xF6
0x0A
0x06
0x01
0x14
0xED
0xF4
0xEE
0x03
0xF6
0xE5
0x25
0x0B
0x1B
0xF4
0x0D
0xFE
0xFC
0x05
0xF2
0x0D
0xF1
0xFA
0x02
0x02
0xF2
0xEF
0x05
0xFA
0x05
0x0C//
0xEC
0x11
0x1A
0x02
0xF5
0xF6
0x18
0x17
0x00
0xE7
0x05
0xEE
0x09
0x09
0x0F
0xEF
0x0B
0x03
0x0F
0xFE
0x14
0xEF
0xF1
0x00
0x1B
0x03
0xE8
0x07
0xEB
0xF4
0xED
0xEA
0x08
0x11
0xF4
0x08
0xF1
0x06
0x03
0x05
0x09
0x05
0xF5
0x0D
0xFB
0xF2
0x05
0xF2//
0x14
0xFD
0xF2
0xF6
0xEC
0xF8
0xF6
0xEE
0xF9
0x15
0x11
0x0D
0xE8
0xEE
0xF6
0x05
0x00
0xFD
0x0B
0xFF
0xDF
0x0D
0x1D
0x16
0xFD
0x01
0x10
0x17
0xFB
0xEE
0x0B
0xF2
0x06
0xFD
0xF4
0x07
0xF8
0xFE
0x03
0xF3
0x0F
0x02
0xFA
0xF2
0xF6
0xEF
0xFB
0x10