//CNNEL_ID = 0 - 0
0x21
0x09
0x09
0xF9
0x00
0x1D
0x16
0xF3
0x1A
0x22
0x0F
0x05
0x1A
0x26
0x2E
0x13
0x1B
0x1F
0x25
0x21
0xFE
0x0B
0x08
0xFB
0xFD
//CNNEL_ID = 0 - 1
0x0E
0x10
0x0E
0x12
0x22
0x0F
0xFB
0x0F
0x1A
0x0F
0xE1
0x0D
0xFF
0x01
0x11
0xED
0xF7
0xE8
0xF1
0xFE
0xE3
0xE1
0xFB
0xEA
0xEE
//CNNEL_ID = 0 - 2
0x04
0xEF
0x04
0xF8
0xF9
0x23
0xE4
0xDC
0xF0
0x19
0x1E
0x1B
0x0E
0x27
0x2C
0x2F
0x29
0x2D
0x25
0x1F
0x2E
0x34
0x1C
0xFC
0xFB
// CHANNEL_ID = 1
0xF0
0xE3
0xDB
0xFA
0xE8
0xE5
0xE5
0xFE
0x04
0x05
0xF7
0xFC
0xFF
0xF9
0x11
0x0B
0x07
0xEC
0xFA
0x04
0x19
0x07
0x0F
0xFB
0x10
0xFF
0xE2
0xF6
0x16
0x0A
0x0D
0x0B
0xFA
0x01
0x26
0x22
0x0C
0x06
0x07
0x1E
0x21
0x1A
0x1E
0x09
0x17
0x33
0x19
0x1D
0x10
0x09
0xE4
0x06
0xF8
0xEC
0xCB
0xDE
0xEC
0x03
0xFC
0xD1
0xD3
0xD8
0xF8
0x06
0x05
0xBE
0xC8
0xCC
0xDD
0xE4
0xD7
0xD3
0xD7
0xD1
0xF5
// CHANNEL_ID = 2
0xF7
0x05
0x08
0x0D
0xF6
0xF8
0xF0
0xFE
0x0A
0x03
0xFC
0x0B
0x03
0xF4
0x07
0x01
0xF3
0x01
0x01
0xFF
0xF6
0xF2
0xF1
0x00
0xFA
0x0B
0x0B
0xF9
0xF3
0x04
0xF1
0x06
0xF1
0xF7
0x06
0xF7
0xF8
0x00
0xFF
0xF6
0xF7
0x03
0x01
0x02
0xF7
0xFE
0xFC
0xFD
0x02
0xF1
0x05
0x02
0x03
0xF1
0xF7
0xF3
0x02
0x02
0xF9
0xF7
0x01
0x07
0xFC
0xFF
0xF1
0x0A
0xFD
0x0B
0xF3
0x0A
0xF9
0x01
0x09
0xF4
0xFB