// CHANNEL_ID = 0
21
09
09
F9
00
1D
16
F3
1A
22
0F
05
1A
25
2E
13
1B
1F
25
21
FE
0B
07
FB
FD
0E
10
0E
11
22
0F
FB
0F
1A
0F
E1
0D
FF
01
11
ED
F7
E8
FE
E3
E1
FB
EA
EF
04
EF
04
F9
F9
23
E5
DC
F0
19
1E
0E
27
2C
2F
29
2D
25
1F
2E
34
1B
FC
FB

// CHANNEL_ID = 1
F0
E3
DB
FA
E8
E5
E5
FE
04
05
F7
FC
FF
F9
11
0B
07
EC
FA
04
19
07
0F
FB
10
FF
E2
F6
16
0A
0D
0B
FA
01
25
22
0C
06
07
1E
21
1A
1E
09
17
33
19
1D
10
09
E5
06
F9
EC
CB
DE
EC
03
FC
D1
D3
D8
F9
06
05
BE
C8
CC
DD
E5
D7
D3
D7
D1
F5

// CHANNEL_ID = 2
F7
05
07
0D
F6
F9
F0
FE
0A
03
FC
0B
03
F4
07
01
F3
01
01
FF
F6
F2
F1
00
FA
0B
0B
F9
F3
04
F1
06
F1
F7
06
F7
F9
00
FF
F6
F7
03
01
02
F7
FE
FC
FD
02
F1
05
02
03
F1
F7
F3
02
02
F9
F7
01
07
FC
FF
F1
0A
FD
0B
F3
0A
F9
01
09
F4
FB
