0x03
0x1e
0xe3
0xd0
0xf8
0x3d
0x26
0xb4
0xf2
0x0f
0x45
0xc6
0xae
0xf8
0x37
0xf9
0xb0
0xd8
0x1b
0x3d
0xcd
0xf8
0x0a
0x2b
0x15
0xda
0xe4
0x05
0x1b
0x2c
0xda
0xda
0x19
0x1b
0x33
0xe7
0xbc
0xfb
0x29
0x36
0xe6
0xc0
0xf2
0x3f
0x20
0xd2
0xca
0xf5
0x41
0x2f
0xf1
0x0b
0x25
0x3a
0x54
0x0c
0x08
0x2f
0x16
0x4b
0x19
0x2b
0x1c
0x39
0x2c
0x14
0x10
0x2d
0x2c
0x30
0x13
0x3c
0x50
0x36
0x37
