0xb3
0xd8
0xe7
0xe6
0xcc
0xe5
0xcd
0xe5
0x10
0xe6
0xf7
0xf0
0x09
0x22
0xf1
0x03
0x11
0x14
0x19
0xd7
0x00
0x13
0xf7
0x17
0xbc
0xc9
0xfb
0xdb
0xda
0xa7
0xdd
0xe4
0xd5
0xd8
0xc6
0xd0
0xe1
0xdd
0xe9
0x05
0xe8
0xfb
0x06
0xff
0x13
0xeb
0x14
0x0a
0xff
0x05
0x17
0x16
0x2b
0x1b
0x0a
0x1e
0x19
0x1b
0xfe
0xe9
0x1b
0x0c
0xfa
0xf9
0xf8
0x2f
0x09
0x0e
0x05
0x11
0xed
0xc4
0xf0
0xf9
0x0e
0x02
0x25
0x2b
0x40
0x24
0x22
0x47
0x3d
0x32
0xfc
0x23
0x35
0x21
0x33
0x26
0xfd
0x16
0x36
0x40
0x45
0xc3
0xcb
0xdc
0x03
0x00
0x09
0xe1
0x00
0x0b
0x05
0x0a
0x18
0x2c
0x1d
0x0a
0x12
0x1a
0x29
0x13
0xf4
0x0d
0xf1
0xed
0xd6
0xec
0xe9
0xae
0xc6
0xb8
0xd5
0xdc
0xe3
0xca
0xd0
0xe2
0xec
0xe5
0xfa
0x07
0xf4
0xfd
0xfb
0x16
0x10
0x17
0x02
0x09
0x1c
0x28
0x30
0xf7
0x0e
0x1c
0x30
0x47
0xf9
0x22
0x2e
0x34
0x31
0x2e
0x4d
0x3c
0x3e
0x2a
0x2a
0x53
0x3d
0x5d
0x53
0x0a
0x36
0x41
0x55
0x2a
0xdb
0xe7
0xef
0x1f
0x27
0x36
0x45
0x5a
0x25
0xe1
0x37
0x3b
0x26
0xf1
0xe2
0x4c
0x4e
0x0d
0xe9
0xe3
0x3d
0x36
0x10
0xff
0xdc
0xe7
0xce
0xe6
0xe5
0xd6
0xfd
0x10
0x08
0x04
0xf7
0x19
0x11
0xf0
0x01
0x03
0x0f
0xfa
0xf1
0x03
0x00
0x14
0xee
0xf4
0x04
0x13
0xfa
0xfe
0xef
0xf0
0xea
