0x20
0x0a
0xf4
0xe7
0x1b
0xfa
0xf1
0xe1
0xfc
0x10
0xee
0xf6
0x01
0x03
0xf9
0xe0
0x14
0x15
0xef
0xea
0x07
0x0b
0xed
0xe3
0x0c
0x06
0xf7
0xed
0x1a
0x12
0x03
0xf4
0xe7
0x02
0xe7
0xe9
0x0d
0xf1
0x0b
0x02
0x21
0xe7
0x02
0x01
0x0b
0x11
0xfd
0x19
0x00
0x00
0xfb
0x06
0x0b
0xf4
0x0c
0xf9
0x16
0x0a
0xeb
0x04
0xf7
0x06
0xfd
0xe7
0x09
0xf3
0xf8
0xf9
0xe8
0xfa
0xf1
0x01
0xf3
0x02
0x20
0xca
0xd8
0xff
0xe4
0x26
0x15
0x09
0x09
0xf1
0x13
0x0e
0x0a
0x0d
0xef
0x15
0xe0
0xc6
0x1b
0x0c
0x1e
0x14
0x1e
0x15
0xfc
0x0c
0x1f
0x18
0xe5
0x17
0xd8
0xe4
0xf8
0x13
0xe3
0xea
0x06
0x15
0x26
0x12
0xfc
0x08
0x0b
0x0d
0x07
0x19
0xf9
0xe6
0xfc
0x18
0xcf
0xd2
0xf7
0xf6
0xd0
0xdd
0xf5
0xf9
0x23
0x02
0x10
0x06
0x01
0x0e
0xfa
0x0d
0xdd
0xf4
0xcf
0xe0
0x02
0x07
0xfb
0x15
0xfd
0x02
0x05
0xfc
0x19
0xff
0x02
0xf6
0x01
0xe7
0xf8
0xf9
0x17
0x17
0xff
0xe1
0xf8
0x15
0x10
0xe5
0xfb
0x04
0xf2
0xf6
0xea
0x06
0xe1
0x10
0xc9
0xce
0xd5
0x0c
0xdd
0x02
0x00
0xfc
0x09
0x05
0xf4
0x1e
0x23
0x21
0xf8
0x1f
0x30
0x1c
0x13
0x12
0xfb
0xde
0xda
0x0a
0xed
0xfb
0xfa
0x17
0xf1
0xd3
0xfc
0x11
0x14
0x0c
0x16
0x06
0xe4
0x05
0xff
0x14
0x01
0xf8
0x1d
0x1f
0xed
0xdd
0xe6
0x10
0x14
0x0b
0xe4
0xde
0xfa
0xe0
0x04
0x0b
0x21
0xf7
0xeb
0x04
0xd6
0xe9
0xc3
0xe9
0x10
0x04
0xf3
0xe7
0x04
0xfb
0xf7
0xee
0x04
0xe3
0xe9
0x1e
0xfc
0x1d
0x11
0x2f
0x19
0x09
0x1f
0x2a
0xe3
0xf5
0xf1
0xf2
0x05
0xe0
0x0d
0x1c
0x14
0x00
0x1c
0x02
0xf6
0x16
0x04
0xee
0xf1
0xf7
0xf9
0xd2
0xdb
0xec
0xf0
0xe9
0xe6
0xee
0xf1
0xdf
0x1e
0x02
0xea
0xef
0x0f
0x00
0xf2
0x01
0xfe
0x1a
0xfa
0xf1
0x0a
0xfd
0xf7
0xdd
0x0e
0x03
0x01
0x13
0xfa
0x14
0xfd
0xf3
0xfd
0x08
0x0f
0xf3
0xde
0x01
0x04
0x09
0x27
0x09
0x09
0xee
0x1e
0x0d
0xee
0xf2
0x00
0xe2
0xe9
0xe6
0x05
0x01
0x03
0x0c
0xec
0xfd
0xfe
0x06
0x05
0x0c
0x10
0x00
0xf2
0x08
0xff
0x10
0xfe
0x20
0xf4
0xde
0xf5
0xe2
0xef
0xf5
0xec
0x06
0xdf
0xec
0xf9
0xf5
0x01
0xe4
0x1f
0x20
0xf1
0xe9
0x05
0x1f
0x10
0x2f
0xf2
0x15
0xf1
0xf4
0xd8
0xf8
0xf8
0xe9
0x18
0x28
0x0d
0x24
0x0f
0xf5
0x0e
0x17
0xfc
0x01
0xf8
0x0b
0x13
0x0a
0xf3
0x1a
0xff
0xfe
0xf8
0x0d
0xf9
0x0e
0x18
0x04
0xfb
0xfa
0x0c
0xf6
0xf4
0xf6
0x19
0xe0
0xe3
0x06
0x15
0xe7
0xc7
0xdc
0xdd
0xff
0xda
0xdd
0xfd
0xf8
0x08
0x0a
0x03
0x01
0xcb
0xf6
0x03
0x02
0x04
0x03
0xfe
0x15
0x16
0x08
0xec
0x0d
0x12
0x18
0xef
0xf6
0xd5
0xf7
0x22
0x24
0x00
0x07
0x0d
0x11
0x1f
0x13
0xf4
0xf0
0xe3
0xf9
0xf5
0xe0
0xe5
0xeb
0x22
0xfb
0xd1
0xc7
0xd1
0xd8
0xb9
0xde
0xf9
0x0c
0x03
0xf0
0x02
0x07
0xff
0x19
0x11
0x0f
0xe3
0xea
0x04
0x1f
0x1c
0x02
0x02
0x29
0xe9
0x15
0x18
0x09
0xf9
0xff
0xdd
0xe2
0xeb
0xce
0xf9
0x01
0xda
0xfd
0x0b
0x1f
0xf2
0xfc
0xf8
0xfb
0x14
0xfb
0xec
0xcf
0x25
0x32
0x2a
0x19
0x15
0x03
0xfc
0xf9
0xe2
0xf8
0xf7
0xf6
0x16
0x01
0xdb
0xfe
0xfa
0xf9
0x07
0x15
0x05
0xf3
0x0c
0x06
0x02
0x08
0x23
0x25
0xed
0xf5
0x0b
0x27
0x04
0xe2
0x0c
0xed
0x05
0xdc
0x23
0xe9
0xec
0xed
0x17
0xe4
0xec
0xf7
0x10
0xe0
0xe0
0x00
0x07
0x16
0xd7
0xf5
0xf7
0x02
0x01
0x15
0x03
0x0b
0xf1
0xfc
0xed
0xfd
0xe1
0x04
0xf9
0xf1
0xe3
0xfd
0x17
0xd6
0xcf
0xf6
0x12
0xc5
0x05
0x19
0x13
0xd8
0xec
0xf7
0xf8
0xc4
0x05
0xff
0x03
0xc7
0x20
0x22
0x1d
0xef
0x16
0x08
0x11
0xe4
0xe4
0xde
0x02
0x06
0xeb
0x00
0x10
0xee
0x01
0x0d
0x1d
0x1b
0x3d
0xf4
0x15
0x23
0xf2
0x00
0xfb
0xff
0xf6
0xfc
0x0c
0xe0
0xf3
0xfe
0x16
0xd6
0xff
0x07
0xff
0xfb
0xe9
0x04
0xfa
0xd4
0x16
0x0f
0xf9
0xeb
0x17
0x01
0xf5
0xe3
0x47
0x05
0xf6
0x01
0xec
0xf1
0xd3
0x00
0xde
0x06
0x08
0x08
0xdb
0xe6
0x26
0x13
0x22
0x22
0x24
0x05
0x15
0x12
0xf8
0xf5
0x0d
0x1d
0xeb
0xec
0xe2
0xfc
0xeb
0xe3
0xe6
0xf4
0xfe
0x13
0x12
0x15
0x03
0xe4
0x0a
0x24
0x19
0xde
0xf0
0x15
0x02
0x0c
0xdb
0xe3
0x12
0x29
0xda
0xef
0xdd
0xef
0x07
0x02
0xf8
0xef
0x10
0xef
0xfa
0xef
0xf0
0x07
0xf7
0x1c
0xe9
0xf8
0xe8
0xd3
0xf7
0x01
0xf6
0xf5
0xf9
0xdb
0x11
0x28
0x0c
0x04
0x11
0x18
0x0e
0x11
0x0f
0xec
0xeb
0xfd
0xf6
0x29
0x01
0xf5
0x0d
0x47
0xff
0xf4
0x10
0x16
0xfb
0xff
0xf3
0xed
0xf5
0xfc
0x19
0x1c
0xd3
0xfa
0xf9
0xf2
0xf8
0xf7
0xeb
0xa6
0x19
0xfe
0xea
0xd5
0x0c
0x00
0xf5
0xf6
0xfd
0x10
0xee
0xfe
0x18
0x03
0xeb
0xe2
0x03
0x16
0x09
0xef
0xfd
0x03
0x05
0xf5
0x16
0x03
0xef
0x06
0xf2
0xfd
0x05
0xf7
0x36
0x0f
0xfb
0xe1
0x13
0xfd
0xf0
0x03
0x24
0xe2
0x09
0x16
0xf4
0xfb
0x10
0xff
0x05
0x02
0x08
0x00
0x01
0xf8
0xf1
0x05
0xf0
0xec
0x0a
0xf1
0x03
0xfe
0xde
0x04
0x0e
0x07
0x17
0xe8
0x06
0x06
0x14
0x18
0x02
0x00
0xf0
0x1f
0x27
0x13
0xed
0xd8
0x0e
0x15
0xde
0xf0
0xe2
0x03
0x00
0xf8
0xdb
0xf1
0xfa
0xf1
0xec
0x1f
0x04
0xf4
0x30
0x10
0x0a
0x10
0xfd
0xe3
0xf0
0x04
0x2b
0x0b
0xfb
0x00
0xf4
0xf1
0xfe
0xfa
0x06
0xf5
0x1d
0x27
0xfc
0x06
0x03
0xf2
0xd4
0x0c
0x15
0xd1
0xc8
0xf5
0x07
0x31
0x48
0x16
0xe8
0xd6
0xbe
0xee
0xf2
0xd0
0xf7
0xf0
0xc3
0xf6
0xe5
0xf3
0xf2
0xfc
0xf1
0xf5
0x05
0x01
0xf2
0xfc
0xf2
0x17
0xff
0xe6
0xf7
0x10
0x19
0xfc
0xf3
0x0e
0x14
0x01
0x0f
0x06
0x22
0xff
0x08
0x05
0x24
0x08
0x17
0x13
0x05
0xfc
0x04
0xfe
0xc6
0xc0
0x04
0x13
0xe6
0xfd
0x0b
0xe8
0xd6
0xe9
0xef
0xcd
0xfb
0x10
0x1d
0x02
0xf1
0x16
0xfd
0x05
0xfd
0x08
0x12
0xe4
0xd9
0x19
0x13
0x0e
0xdb
0x03
0x1a
0xed
0xfd
0xf1
0xe0
0xd3
0xf9
0xef
0xe4
0xf9
0xf5
0x05
0xe2
0xfa
0xf0
0x02
0xff
0xfc
0xf1
0x0f
0x24
0x18
0x14
0x12
0x13
0x0c
0x13
0x17
0xfa
0x1a
0xf6
0x01
0xf5
0x12
0xe1
0xed
0x08
0xfc
0xe0
0xf2
0xfb
0x02
0xe8
0x02
0x24
0x07
0xf2
0x07
0x2e
0x0d
0xd6
0xe3
0xf7
0x0a
0xea
0xe3
0xf6
0x1d
0xff
0xf3
0xf8
0x0d
0x06
0xf9
0x15
0x02
0xeb
0x00
0xff
0x06
0xed
0x1a
0xfc
0xf7
0x06
0x18
0x0a
0x1c
0xe1
0x06
0x12
0xf9
0xe3
0x06
0x11
0xec
0xf5
0x00
0x1f
0xde
0xd6
0x03
0x07
0xeb
0xf5
0x06
0xf7
0x0a
0xd6
0x07
0x08
0xbb
0xd9
0xf3
0xe9
0xdf
0xf9
0x09
0xe9
0x07
0x0b
0x02
0xe9
0x12
0x05
0xe8
0xf5
0x00
0x2c
0x00
0x0b
0x13
0x1c
0xf1
0x13
0x20
0x16
0x06
0x1e
0x1c
0xe4
0xdc
0x09
0x1b
0xe4
0xfa
0xfc
0x1c
0x1b
0x11
0x15
0xfa
0x12
0x1c
0xd9
0xe1
0xd1
0xba
0x0b
0x12
0xe9
0xff
0xf7
0x1c
0xfa
0xf4
0x10
0xe0
0x16
0x15
0xf8
0xd9
0x1b
0x1f
0x11
0x0e
0xe3
0xf6
0xfd
0x0d
0xf0
0x05
0xf3
0xfa
0x26
0xee
0xf2
0xed
0xdb
0xcd
0xf2
0xf4
0xec
0x08
0x13
0x12
0xec
0x18
0x1a
0x05
0x0b
0x10
0x25
0x09
0xe3
0xbd
0xf2
0x24
0x00
0x0d
0xef
0x0c
0xff
0x08
0x09
0x0e
0xfe
0xf2
0x1b
0xf0
0xf4
0x2f
0x15
0x17
0x0e
0x05
0xfc
0xf5
0xca
0xf4
0x03
0x1c
0xf1
0x00
0xf8
0xf1
0xef
0xe9
0xe7
0x22
0xf6
0xfa
0xf6
0x0a
0x33
0x0e
0x1a
0x11
0x02
0xeb
0xd4
0xf1
0x16
0x10
0x04
0xff
0x08
0xfc
0x0d
0x0d
0x13
0x0d
0x14
0x05
0xee
0xff
0xf1
0x00
0xee
0xc8
0xcf
0x08
0xe6
0xf2
0xfc
0x26
0x16
0x20
0x23
0xfe
0xf1
0xea
0xd1
0xbb
